const unsigned char model[] = {
  0x1c, 0x00, 0x00, 0x00, 0x54, 0x46, 0x4c, 0x33, 0x14, 0x00, 0x20, 0x00,
  0x1c, 0x00, 0x18, 0x00, 0x14, 0x00, 0x10, 0x00, 0x0c, 0x00, 0x00, 0x00,
  0x08, 0x00, 0x04, 0x00, 0x14, 0x00, 0x00, 0x00, 0x1c, 0x00, 0x00, 0x00,
  0x98, 0x00, 0x00, 0x00, 0xf0, 0x00, 0x00, 0x00, 0x60, 0x18, 0x00, 0x00,
  0x70, 0x18, 0x00, 0x00, 0xcc, 0x1c, 0x00, 0x00, 0x03, 0x00, 0x00, 0x00,
  0x01, 0x00, 0x00, 0x00, 0x10, 0x00, 0x00, 0x00, 0x00, 0x00, 0x0a, 0x00,
  0x10, 0x00, 0x0c, 0x00, 0x08, 0x00, 0x04, 0x00, 0x0a, 0x00, 0x00, 0x00,
  0x0c, 0x00, 0x00, 0x00, 0x1c, 0x00, 0x00, 0x00, 0x3c, 0x00, 0x00, 0x00,
  0x0f, 0x00, 0x00, 0x00, 0x73, 0x65, 0x72, 0x76, 0x69, 0x6e, 0x67, 0x5f,
  0x64, 0x65, 0x66, 0x61, 0x75, 0x6c, 0x74, 0x00, 0x01, 0x00, 0x00, 0x00,
  0x04, 0x00, 0x00, 0x00, 0x90, 0xff, 0xff, 0xff, 0x08, 0x00, 0x00, 0x00,
  0x04, 0x00, 0x00, 0x00, 0x08, 0x00, 0x00, 0x00, 0x6f, 0x75, 0x74, 0x70,
  0x75, 0x74, 0x5f, 0x30, 0x00, 0x00, 0x00, 0x00, 0x01, 0x00, 0x00, 0x00,
  0x04, 0x00, 0x00, 0x00, 0x86, 0xe7, 0xff, 0xff, 0x04, 0x00, 0x00, 0x00,
  0x0c, 0x00, 0x00, 0x00, 0x6b, 0x65, 0x72, 0x61, 0x73, 0x5f, 0x74, 0x65,
  0x6e, 0x73, 0x6f, 0x72, 0x00, 0x00, 0x00, 0x00, 0x02, 0x00, 0x00, 0x00,
  0x34, 0x00, 0x00, 0x00, 0x04, 0x00, 0x00, 0x00, 0xdc, 0xff, 0xff, 0xff,
  0x0b, 0x00, 0x00, 0x00, 0x04, 0x00, 0x00, 0x00, 0x13, 0x00, 0x00, 0x00,
  0x43, 0x4f, 0x4e, 0x56, 0x45, 0x52, 0x53, 0x49, 0x4f, 0x4e, 0x5f, 0x4d,
  0x45, 0x54, 0x41, 0x44, 0x41, 0x54, 0x41, 0x00, 0x08, 0x00, 0x0c, 0x00,
  0x08, 0x00, 0x04, 0x00, 0x08, 0x00, 0x00, 0x00, 0x0a, 0x00, 0x00, 0x00,
  0x04, 0x00, 0x00, 0x00, 0x13, 0x00, 0x00, 0x00, 0x6d, 0x69, 0x6e, 0x5f,
  0x72, 0x75, 0x6e, 0x74, 0x69, 0x6d, 0x65, 0x5f, 0x76, 0x65, 0x72, 0x73,
  0x69, 0x6f, 0x6e, 0x00, 0x0c, 0x00, 0x00, 0x00, 0x6c, 0x17, 0x00, 0x00,
  0x64, 0x17, 0x00, 0x00, 0x4c, 0x17, 0x00, 0x00, 0x2c, 0x17, 0x00, 0x00,
  0x14, 0x17, 0x00, 0x00, 0xb4, 0x00, 0x00, 0x00, 0xac, 0x00, 0x00, 0x00,
  0xa4, 0x00, 0x00, 0x00, 0x9c, 0x00, 0x00, 0x00, 0x94, 0x00, 0x00, 0x00,
  0x74, 0x00, 0x00, 0x00, 0x04, 0x00, 0x00, 0x00, 0x32, 0xe8, 0xff, 0xff,
  0x04, 0x00, 0x00, 0x00, 0x60, 0x00, 0x00, 0x00, 0x10, 0x00, 0x00, 0x00,
  0x00, 0x00, 0x00, 0x00, 0x08, 0x00, 0x0e, 0x00, 0x08, 0x00, 0x04, 0x00,
  0x08, 0x00, 0x00, 0x00, 0x10, 0x00, 0x00, 0x00, 0x24, 0x00, 0x00, 0x00,
  0x00, 0x00, 0x06, 0x00, 0x08, 0x00, 0x04, 0x00, 0x06, 0x00, 0x00, 0x00,
  0x04, 0x00, 0x00, 0x00, 0x00, 0x00, 0x00, 0x00, 0x0c, 0x00, 0x18, 0x00,
  0x14, 0x00, 0x10, 0x00, 0x0c, 0x00, 0x04, 0x00, 0x0c, 0x00, 0x00, 0x00,
  0x87, 0x57, 0x59, 0x1a, 0xc3, 0x51, 0x39, 0xfa, 0x02, 0x00, 0x00, 0x00,
  0x02, 0x00, 0x00, 0x00, 0x04, 0x00, 0x00, 0x00, 0x06, 0x00, 0x00, 0x00,
  0x32, 0x2e, 0x31, 0x38, 0x2e, 0x30, 0x00, 0x00, 0x9e, 0xe8, 0xff, 0xff,
  0x04, 0x00, 0x00, 0x00, 0x10, 0x00, 0x00, 0x00, 0x31, 0x2e, 0x35, 0x2e,
  0x30, 0x00, 0x00, 0x00, 0x00, 0x00, 0x00, 0x00, 0x00, 0x00, 0x00, 0x00,
  0x0c, 0xe5, 0xff, 0xff, 0x10, 0xe5, 0xff, 0xff, 0x14, 0xe5, 0xff, 0xff,
  0x18, 0xe5, 0xff, 0xff, 0xca, 0xe8, 0xff, 0xff, 0x04, 0x00, 0x00, 0x00,
  0x50, 0x16, 0x00, 0x00, 0xe6, 0x7c, 0xc3, 0x3d, 0x92, 0xc8, 0xc3, 0x3d,
  0xb7, 0x11, 0xbb, 0xbd, 0x40, 0x7f, 0xa2, 0x3d, 0x00, 0x81, 0x64, 0xba,
  0x30, 0x26, 0x23, 0x3d, 0x40, 0x44, 0x5b, 0x3c, 0x18, 0xb6, 0xa2, 0x3c,
  0xbe, 0xdb, 0xad, 0x3d, 0x70, 0x45, 0xfc, 0xbc, 0x60, 0x24, 0x76, 0x3d,
  0xa0, 0x85, 0xa5, 0x3d, 0xec, 0x81, 0x8c, 0xbc, 0x88, 0xf4, 0x8c, 0x3d,
  0x38, 0x42, 0x2b, 0x3d, 0xc4, 0x59, 0x40, 0x3d, 0x14, 0xf4, 0xc2, 0x3d,
  0x34, 0xea, 0xc3, 0xbd, 0x3a, 0xc7, 0x08, 0xbd, 0x5c, 0xb8, 0x95, 0xbd,
  0xcc, 0x3e, 0xca, 0xbc, 0x22, 0x9c, 0xd5, 0xbd, 0x88, 0x9b, 0x4b, 0x3d,
  0xbc, 0x0a, 0xa2, 0x3d, 0x84, 0xe2, 0x16, 0x3d, 0xc5, 0x37, 0xc1, 0xbd,
  0xc8, 0xa8, 0x9b, 0x3d, 0x60, 0xa1, 0xe7, 0xbd, 0x40, 0x6c, 0x06, 0x3c,
  0x5e, 0xe7, 0xec, 0x3d, 0x40, 0xc0, 0xb0, 0xbb, 0x16, 0xa9, 0xbc, 0x3d,
  0xd8, 0x97, 0xe5, 0xbd, 0xa4, 0x9e, 0x71, 0x3d, 0x20, 0x3e, 0x7d, 0x3c,
  0x62, 0x2c, 0xc6, 0x3d, 0x50, 0x20, 0x2b, 0x3d, 0x80, 0x03, 0x96, 0x3d,
  0x24, 0x7c, 0x82, 0x3d, 0xc4, 0xe9, 0x1c, 0x3d, 0x70, 0xf5, 0x83, 0x3c,
  0x68, 0x63, 0xc0, 0x3d, 0xc6, 0xb4, 0xe5, 0x3d, 0x1a, 0xfc, 0xf8, 0x3d,
  0x2b, 0xe7, 0x01, 0xbe, 0x74, 0xef, 0x6d, 0x3d, 0x40, 0x1d, 0x2b, 0xbb,
  0x0e, 0xdf, 0xbb, 0xbd, 0x76, 0x29, 0x00, 0xbd, 0xb7, 0xae, 0xa8, 0xbd,
  0x64, 0xa4, 0x62, 0x3d, 0xe3, 0x68, 0x00, 0xbe, 0xb8, 0x4f, 0x88, 0xbd,
  0xce, 0xe6, 0xf9, 0xbd, 0x1c, 0x7e, 0x02, 0xbe, 0x18, 0x12, 0xce, 0x3d,
  0x66, 0x6d, 0xfe, 0xbd, 0xf6, 0x9d, 0x80, 0x3d, 0xfa, 0x91, 0xa7, 0x3d,
  0x02, 0x82, 0x4c, 0xbd, 0xa4, 0xc7, 0x51, 0x3d, 0xfe, 0x8f, 0x91, 0xbd,
  0x1c, 0xa0, 0xa3, 0xbd, 0xb4, 0x58, 0xb8, 0xbc, 0xba, 0x6a, 0x17, 0xbd,
  0x3e, 0x4e, 0xe4, 0xbd, 0xc8, 0x84, 0x9c, 0x3d, 0xcf, 0x33, 0x00, 0x3e,
  0x38, 0x8b, 0xa2, 0x3d, 0xc0, 0x55, 0x16, 0xbc, 0x90, 0xe0, 0x2e, 0xbc,
  0xc0, 0x63, 0x3d, 0x3c, 0x20, 0x09, 0x1d, 0x3d, 0x90, 0x9a, 0xf0, 0x3d,
  0x62, 0x11, 0xac, 0x3d, 0x60, 0x73, 0xf5, 0x3b, 0x60, 0xed, 0x58, 0x3d,
  0x76, 0x47, 0xe1, 0xbd, 0x32, 0xd0, 0x96, 0xbd, 0x60, 0x83, 0x08, 0xbc,
  0x54, 0xf4, 0xaf, 0xbd, 0x80, 0xb3, 0xf6, 0x3a, 0x88, 0x5b, 0xeb, 0x3d,
  0x14, 0x90, 0xb8, 0x3d, 0xe8, 0x2a, 0xf9, 0xbc, 0x54, 0xb7, 0xcc, 0x3d,
  0x30, 0x82, 0x20, 0x3c, 0xa7, 0xdc, 0xb7, 0xbd, 0x50, 0xbc, 0x45, 0x3d,
  0x72, 0x2c, 0x4e, 0xbd, 0x34, 0x34, 0xd1, 0x3d, 0x3c, 0x15, 0xe2, 0xbd,
  0x52, 0x98, 0xa6, 0xbd, 0xc8, 0x78, 0x29, 0xbd, 0xf0, 0x9b, 0x49, 0xbd,
  0x3e, 0x53, 0x76, 0xbd, 0x88, 0x18, 0x1d, 0x3d, 0x10, 0x24, 0x14, 0xbd,
  0x74, 0xed, 0x84, 0xbd, 0xe4, 0x35, 0x4d, 0x3d, 0x68, 0xdc, 0x83, 0x3c,
  0x20, 0xbe, 0x9d, 0xbd, 0x88, 0x09, 0xef, 0xbc, 0x10, 0x2a, 0xa5, 0xbc,
  0x0a, 0x28, 0xb4, 0x3d, 0x00, 0x05, 0x08, 0x3b, 0x6e, 0x0b, 0xd4, 0x3d,
  0xd0, 0x36, 0xfc, 0xbc, 0x00, 0xfe, 0x37, 0xba, 0x70, 0xbb, 0x11, 0xbd,
  0x3c, 0x56, 0xf6, 0xbc, 0xf6, 0xc2, 0xbe, 0xbd, 0xf8, 0x55, 0xb9, 0xbc,
  0x6e, 0xdb, 0x96, 0xbd, 0x08, 0x17, 0x11, 0xbc, 0x44, 0xc5, 0xd2, 0x3d,
  0xe7, 0x88, 0xb7, 0xbd, 0x10, 0x14, 0x2a, 0x3c, 0xc8, 0x78, 0xdf, 0xbd,
  0x06, 0x3f, 0xf7, 0xbd, 0xe6, 0xf7, 0xc2, 0xbd, 0x80, 0x6b, 0x47, 0x3b,
  0x3e, 0xcb, 0xad, 0x3d, 0x84, 0x79, 0xed, 0xbd, 0x92, 0xc1, 0x8f, 0xbd,
  0x6e, 0xd7, 0xcf, 0x3d, 0x82, 0x82, 0x86, 0xbd, 0x06, 0x10, 0xa7, 0xbd,
  0x32, 0xb5, 0x80, 0x3d, 0x40, 0x83, 0xf9, 0x3b, 0xca, 0xea, 0xf1, 0x3d,
  0xfc, 0x67, 0x52, 0x3d, 0x7c, 0xfe, 0x3d, 0xbd, 0x9e, 0x3e, 0x9c, 0xbd,
  0xc6, 0x62, 0x53, 0xbd, 0x78, 0x37, 0x4f, 0xbd, 0xb6, 0xf3, 0x9a, 0x3d,
  0x9a, 0x2e, 0x0b, 0xbd, 0x7e, 0xa6, 0xf2, 0x3d, 0xdc, 0x7d, 0x2d, 0xbd,
  0xea, 0x89, 0xb5, 0x3d, 0x30, 0x6f, 0xd6, 0xbc, 0xe0, 0x22, 0xe7, 0x3d,
  0xd2, 0x57, 0xbc, 0x3d, 0x7c, 0xd9, 0xb8, 0xbd, 0x34, 0x6b, 0xe0, 0x3d,
  0x4a, 0x1d, 0xab, 0xbd, 0x28, 0x8b, 0xcb, 0xbc, 0x5c, 0x29, 0x4f, 0x3d,
  0x3c, 0x2c, 0x52, 0xbd, 0x16, 0xb8, 0xf8, 0x3d, 0x1e, 0xe6, 0xf9, 0x3d,
  0x84, 0x45, 0x3d, 0xbd, 0xec, 0x93, 0x43, 0x3d, 0xd2, 0x56, 0xc9, 0x3d,
  0xbc, 0x7c, 0xba, 0x3d, 0xf6, 0xa4, 0xd9, 0xbd, 0x62, 0x16, 0xb6, 0x3d,
  0x18, 0x56, 0xbc, 0xbd, 0xcc, 0x88, 0x88, 0x3d, 0xcf, 0x50, 0x01, 0x3e,
  0x54, 0x65, 0x1b, 0x3d, 0x10, 0x8f, 0x0b, 0xbd, 0xb6, 0x49, 0x0c, 0xbd,
  0x7d, 0x1b, 0x9c, 0xbd, 0x8e, 0x91, 0x58, 0xbd, 0xa8, 0xeb, 0x22, 0x3d,
  0xc0, 0x50, 0xd6, 0x3b, 0x32, 0x3d, 0xd4, 0x3d, 0xd8, 0xf4, 0x2a, 0x3d,
  0x40, 0x40, 0xc5, 0x3d, 0xbb, 0x64, 0x01, 0x3e, 0x80, 0xcb, 0x29, 0x3c,
  0xd0, 0x48, 0x75, 0xbc, 0x30, 0x62, 0x4d, 0x3c, 0x46, 0x48, 0x83, 0xbd,
  0x60, 0xb1, 0xce, 0x3b, 0x3f, 0xa9, 0xf5, 0xbd, 0x1e, 0x5b, 0x05, 0xbd,
  0x0c, 0xa4, 0x3d, 0x3d, 0xcf, 0x5f, 0x03, 0x3e, 0x30, 0xd1, 0x60, 0x3c,
  0x7b, 0x2c, 0xae, 0xbd, 0x00, 0x30, 0xe4, 0x39, 0xd8, 0xac, 0x4d, 0xbd,
  0x00, 0x12, 0x95, 0xbb, 0xd0, 0xcb, 0x20, 0x3c, 0x39, 0xc4, 0x96, 0xbd,
  0xc0, 0x32, 0x9a, 0xbc, 0x38, 0x2e, 0x0d, 0xbd, 0x00, 0xdd, 0x80, 0x3d,
  0xb8, 0xb2, 0x0e, 0xbd, 0x9a, 0xcd, 0xb7, 0xbd, 0x21, 0x3e, 0x96, 0xbd,
  0xa8, 0x44, 0xd8, 0xbc, 0xbb, 0xb3, 0xa1, 0xbd, 0x18, 0x7f, 0x9c, 0xbd,
  0x6a, 0x0b, 0x1f, 0xbd, 0xbc, 0x0c, 0x50, 0xbd, 0x00, 0x3a, 0xb8, 0xb9,
  0x88, 0xab, 0x69, 0x3d, 0x04, 0x5a, 0x88, 0xbd, 0x30, 0xe7, 0x84, 0xbd,
  0x30, 0x17, 0xa5, 0x3d, 0xc5, 0xc6, 0xf5, 0xbd, 0x8c, 0xfd, 0x77, 0x3d,
  0x5e, 0xa0, 0x7e, 0xbd, 0x06, 0xb5, 0xfd, 0xbd, 0x88, 0xdf, 0x0a, 0x3d,
  0x30, 0x90, 0xe9, 0x3d, 0x65, 0xdc, 0xf1, 0xbd, 0x40, 0x8a, 0xa5, 0x3b,
  0x78, 0x1a, 0x6a, 0x3d, 0xaa, 0xfa, 0x30, 0xbd, 0x20, 0x10, 0xba, 0xbc,
  0x00, 0xc5, 0xc1, 0x3d, 0xcc, 0xa1, 0x0c, 0xbd, 0x88, 0x82, 0xc5, 0x3d,
  0x2c, 0xa2, 0xe9, 0xbd, 0x88, 0xbc, 0xd3, 0xbd, 0xec, 0x12, 0xf1, 0x3d,
  0x26, 0x82, 0xfc, 0x3d, 0x38, 0x1f, 0x5b, 0xbd, 0xf4, 0x72, 0xaa, 0xbd,
  0x82, 0xd0, 0x41, 0xbd, 0x80, 0x32, 0x5d, 0xbd, 0x6a, 0x82, 0xf6, 0xbd,
  0x92, 0xe5, 0x34, 0xbd, 0xae, 0x9b, 0x30, 0xbd, 0xcc, 0x07, 0xc1, 0x3d,
  0x72, 0x3e, 0xf8, 0x3d, 0x30, 0xd1, 0xf7, 0xbd, 0xc6, 0xcf, 0x63, 0xbd,
  0x42, 0xe7, 0xd1, 0x3d, 0xf0, 0x7f, 0xa2, 0x3d, 0x80, 0xc3, 0xb4, 0xbd,
  0x29, 0xba, 0xca, 0xbd, 0x60, 0x35, 0x89, 0x3d, 0xc0, 0x13, 0x05, 0xbc,
  0xa0, 0x16, 0x3e, 0xbd, 0xb4, 0x81, 0xa8, 0xbc, 0x98, 0xd2, 0x85, 0xbd,
  0xa8, 0x1e, 0x6b, 0xbc, 0x4d, 0xc0, 0xbe, 0xbd, 0x80, 0x64, 0x2f, 0xbd,
  0xde, 0x06, 0xa5, 0x3d, 0x56, 0x8b, 0xe8, 0x3d, 0x36, 0xd8, 0xb4, 0x3d,
  0xcf, 0x47, 0xf8, 0xbd, 0x0a, 0xf3, 0xdd, 0xbd, 0x30, 0x67, 0x22, 0xbc,
  0x74, 0x53, 0x48, 0x3d, 0x30, 0x16, 0x32, 0x3c, 0xf6, 0xa3, 0xab, 0xbd,
  0x00, 0x80, 0x06, 0x39, 0x04, 0xc8, 0x7f, 0xbd, 0xa4, 0x28, 0xfb, 0xbd,
  0x57, 0xe9, 0xf2, 0xbd, 0x08, 0xc7, 0xbd, 0xbd, 0x06, 0x9b, 0xa0, 0x3d,
  0x28, 0x22, 0x92, 0xbd, 0x18, 0x18, 0x76, 0xbc, 0x38, 0xc4, 0x25, 0x3d,
  0xf0, 0x89, 0x87, 0xbb, 0xa0, 0x5b, 0xee, 0x3d, 0xd6, 0x83, 0x80, 0xbd,
  0xff, 0x80, 0xe2, 0xbd, 0x10, 0xa0, 0xcf, 0xbc, 0x52, 0xd0, 0x18, 0xbd,
  0x90, 0x38, 0xb2, 0x3d, 0xb4, 0x35, 0x18, 0x3d, 0x82, 0x31, 0xbe, 0xbd,
  0x90, 0x05, 0x65, 0xbc, 0xe0, 0xc7, 0xee, 0x3b, 0xd4, 0xe0, 0xb3, 0xbd,
  0x00, 0xe5, 0xaa, 0xbd, 0x80, 0x44, 0x2c, 0xbb, 0x98, 0x92, 0xaa, 0x3c,
  0x42, 0x22, 0xca, 0xbd, 0x3c, 0xdb, 0x8d, 0x3d, 0x96, 0x0e, 0xa2, 0x3d,
  0x40, 0x30, 0xa6, 0x3d, 0x1c, 0xdd, 0x03, 0xbe, 0xe4, 0xa7, 0x4e, 0x3d,
  0x5e, 0xba, 0x39, 0xbd, 0xec, 0x5c, 0xe4, 0xbd, 0x58, 0x68, 0x20, 0x3d,
  0xb0, 0x0c, 0xab, 0xbd, 0xb8, 0xb1, 0xf8, 0x3c, 0x24, 0x7e, 0x8a, 0xbd,
  0x28, 0xc9, 0x7b, 0xbc, 0x60, 0xaa, 0x86, 0x3b, 0xcc, 0xe7, 0x5e, 0x3d,
  0x42, 0xeb, 0x01, 0xbe, 0x32, 0xf5, 0xf8, 0x3d, 0x40, 0x6d, 0x95, 0x3b,
  0xa5, 0xb5, 0xa8, 0xbd, 0xce, 0xfa, 0xf1, 0x3d, 0x64, 0x1f, 0x5f, 0x3d,
  0x28, 0x44, 0x32, 0x3d, 0xb0, 0xa8, 0xed, 0x3c, 0x2a, 0x61, 0xaf, 0x3d,
  0x00, 0x7c, 0xd0, 0x39, 0x0e, 0x1f, 0x2a, 0xbd, 0xc0, 0xc1, 0xfd, 0xbc,
  0x00, 0x29, 0xfa, 0x3c, 0xce, 0x99, 0x5f, 0xbd, 0x18, 0xa0, 0xc7, 0x3c,
  0x46, 0x75, 0xc3, 0x3d, 0xe4, 0x3d, 0x9a, 0x3d, 0x00, 0xfa, 0xac, 0xbc,
  0x6c, 0x86, 0x82, 0xbd, 0x95, 0x40, 0xfe, 0xbd, 0xb8, 0x7f, 0x47, 0xbc,
  0x35, 0x45, 0xb4, 0xbd, 0x14, 0x30, 0x6c, 0x3d, 0x3c, 0xda, 0xcf, 0xbd,
  0x44, 0x59, 0xa9, 0xbc, 0x09, 0x29, 0xe9, 0xbd, 0x8e, 0x71, 0xfa, 0x3d,
  0x62, 0x7a, 0xfe, 0x3d, 0x14, 0xd6, 0xe9, 0xbd, 0x90, 0xd4, 0x75, 0x3c,
  0x70, 0x10, 0x86, 0x3c, 0x70, 0x61, 0xe4, 0xbb, 0xfa, 0x8d, 0xa2, 0x3d,
  0x88, 0x97, 0xd3, 0xbd, 0x46, 0x86, 0xbf, 0xbd, 0x38, 0x41, 0x7d, 0x3d,
  0xb8, 0x4a, 0x14, 0xbc, 0x00, 0x20, 0xda, 0xb7, 0x6d, 0xfa, 0xb5, 0xbd,
  0xde, 0x98, 0xc2, 0x3d, 0x84, 0x40, 0xf2, 0x3d, 0x7e, 0xb2, 0xd7, 0xbd,
  0xd4, 0x08, 0x7e, 0x3d, 0x00, 0x35, 0xbe, 0xbb, 0xaf, 0x7b, 0xf0, 0xbd,
  0x98, 0xbb, 0xef, 0xbd, 0x27, 0xaa, 0x8f, 0xbd, 0xf8, 0x2b, 0x86, 0xbd,
  0x96, 0xe3, 0xc5, 0x3d, 0x6c, 0xdd, 0x84, 0x3d, 0xb0, 0x4e, 0x14, 0x3c,
  0xb1, 0x79, 0xb3, 0xbd, 0x18, 0xee, 0xa3, 0x3d, 0xce, 0x74, 0xc7, 0xbd,
  0xfe, 0xec, 0xfd, 0xbd, 0x92, 0x2f, 0x6f, 0xbd, 0x0c, 0x8a, 0x37, 0xbd,
  0x0e, 0x5f, 0xd1, 0xbd, 0xfc, 0xd1, 0xe2, 0xbc, 0xd0, 0xdb, 0x24, 0x3d,
  0xd2, 0x09, 0x1b, 0xbd, 0xa8, 0x8a, 0x80, 0x3d, 0x7c, 0x42, 0xd6, 0x3d,
  0xf8, 0x2c, 0x7a, 0x3d, 0x50, 0x0c, 0x9e, 0x3d, 0x2c, 0xbd, 0x88, 0xbd,
  0x3a, 0x63, 0x7e, 0xbd, 0x42, 0x43, 0x9f, 0x3d, 0x48, 0x3f, 0x62, 0x3d,
  0x58, 0xa6, 0x07, 0x3d, 0x14, 0x64, 0x25, 0x3d, 0x60, 0xf5, 0x02, 0xbe,
  0x46, 0xba, 0xdb, 0xbd, 0x80, 0x57, 0x18, 0x3c, 0xd2, 0x8a, 0xb2, 0x3d,
  0x40, 0xb0, 0x31, 0x3b, 0x38, 0x5e, 0x38, 0xbd, 0x16, 0x33, 0xc2, 0xbd,
  0x80, 0xf6, 0x9e, 0x3b, 0xf2, 0x71, 0x8b, 0xbd, 0x0c, 0xea, 0xaf, 0x3d,
  0x52, 0xb5, 0x35, 0xbd, 0xc8, 0x4e, 0x73, 0xbc, 0x92, 0xd6, 0xe3, 0x3d,
  0xd8, 0x5d, 0xe8, 0x3c, 0x92, 0xc5, 0xbd, 0x3d, 0x3a, 0xeb, 0x01, 0xbe,
  0xbc, 0xa0, 0xdc, 0xbd, 0x34, 0x73, 0xd5, 0x3d, 0x58, 0xeb, 0x3b, 0xbc,
  0xba, 0x8b, 0x9f, 0xbd, 0x06, 0xb6, 0x8a, 0x3d, 0xb8, 0x6f, 0x2d, 0xbc,
  0xd4, 0xfc, 0x09, 0x3d, 0xe0, 0xf3, 0x1c, 0xbc, 0x65, 0xf6, 0xcd, 0xbd,
  0x36, 0x04, 0x81, 0x3d, 0x6c, 0x3e, 0x96, 0xbd, 0x40, 0xaa, 0x5a, 0x3b,
  0x9b, 0xab, 0xa4, 0xbd, 0xea, 0x8c, 0xe4, 0xbd, 0x48, 0x44, 0xec, 0xbc,
  0x42, 0x44, 0x93, 0xbd, 0x00, 0xa8, 0x85, 0x3d, 0x46, 0x0b, 0xbd, 0x3d,
  0x2c, 0x7b, 0xc4, 0x3d, 0xdc, 0x00, 0x6b, 0x3d, 0xca, 0x9e, 0x8f, 0x3d,
  0xf1, 0x9e, 0x00, 0x3e, 0x60, 0x5a, 0xdd, 0x3c, 0xd0, 0x6b, 0xf4, 0xbb,
  0x14, 0x68, 0xe5, 0xbd, 0xe8, 0xb1, 0xb9, 0x3d, 0x00, 0x97, 0x80, 0x3a,
  0xda, 0x5a, 0xbc, 0xbd, 0x26, 0x63, 0xdd, 0x3d, 0xd0, 0x39, 0x3a, 0x3d,
  0xb2, 0x9a, 0xbb, 0x3d, 0x74, 0x30, 0xb8, 0x3d, 0x7d, 0x2f, 0x83, 0xbd,
  0xf0, 0xe7, 0xa8, 0xbb, 0xc8, 0x14, 0x97, 0xbd, 0xc0, 0x76, 0x04, 0x3c,
  0x18, 0xa6, 0x4b, 0x3d, 0xbc, 0xc0, 0x6d, 0x3d, 0xb4, 0x40, 0x10, 0xbd,
  0xea, 0xd9, 0xf9, 0x3d, 0x30, 0x92, 0xd6, 0xbc, 0xf0, 0x95, 0x5e, 0x3c,
  0xa4, 0xfe, 0x6d, 0xbd, 0x0b, 0x4d, 0x94, 0xbd, 0xf0, 0x2d, 0x97, 0x3c,
  0xa4, 0xfa, 0xc7, 0xbd, 0xdc, 0xff, 0xa6, 0xbd, 0x2e, 0x02, 0x09, 0xbd,
  0xa4, 0x5a, 0x47, 0x3d, 0xe8, 0xc4, 0x32, 0x3d, 0x81, 0x0b, 0x00, 0x3e,
  0x1c, 0x47, 0x7a, 0x3d, 0x40, 0x1c, 0x9a, 0xbb, 0xea, 0x66, 0x2e, 0xbd,
  0xe8, 0x09, 0xa8, 0xbd, 0x28, 0xd0, 0xcf, 0x3c, 0xc0, 0x49, 0x98, 0x3c,
  0x38, 0x4a, 0xf9, 0x3c, 0x59, 0x8c, 0xf8, 0xbd, 0x78, 0x3a, 0xe9, 0x3d,
  0xb2, 0x7f, 0xc6, 0x3d, 0x90, 0xad, 0x84, 0x3d, 0x80, 0x17, 0xd9, 0x3c,
  0x48, 0xd4, 0xf8, 0x3c, 0x70, 0x7c, 0x85, 0xbc, 0x0d, 0x4a, 0x89, 0xbd,
  0x78, 0x03, 0x6c, 0xbd, 0x66, 0xc2, 0xdf, 0x3d, 0x8e, 0xe2, 0xfc, 0x3d,
  0x1c, 0x10, 0xc0, 0xbd, 0x88, 0xaa, 0x59, 0x3d, 0x7e, 0xaa, 0xb8, 0xbd,
  0x70, 0x80, 0x8c, 0xbd, 0x68, 0x1a, 0x90, 0xbc, 0xc4, 0xcb, 0xb7, 0xbd,
  0xd4, 0x29, 0xdf, 0xbc, 0x64, 0x08, 0xa7, 0x3d, 0x50, 0xd0, 0x4a, 0x3c,
  0x47, 0xe7, 0xac, 0xbd, 0x68, 0x4d, 0x50, 0xbc, 0x8e, 0xa8, 0xdd, 0x3d,
  0xf8, 0xfd, 0x64, 0xbc, 0xd0, 0x93, 0x28, 0x3d, 0xb8, 0x8d, 0x14, 0x3d,
  0x8c, 0x8b, 0x3b, 0x3d, 0x60, 0x71, 0x32, 0x3d, 0x50, 0xb0, 0xc2, 0x3d,
  0x66, 0xe8, 0xc3, 0xbd, 0x9a, 0x02, 0x9e, 0x3d, 0x78, 0xb0, 0xb0, 0x3c,
  0xa0, 0xd2, 0x4f, 0xbd, 0xce, 0x0e, 0xb8, 0x3d, 0x60, 0x7d, 0xe4, 0x3c,
  0x30, 0x48, 0xab, 0xbc, 0x1e, 0xc5, 0x25, 0xbd, 0x7f, 0x69, 0xf5, 0xbd,
  0x20, 0x10, 0xd9, 0x3d, 0x8f, 0xcc, 0xf6, 0xbd, 0xde, 0x08, 0x2f, 0xbd,
  0xc2, 0x8f, 0x1f, 0xbd, 0x8c, 0x41, 0xf6, 0xbc, 0x50, 0xd6, 0x62, 0xbd,
  0xe6, 0x0d, 0xfd, 0x3d, 0x6a, 0x7e, 0x59, 0xbd, 0xfe, 0xfd, 0xe3, 0x3d,
  0xbe, 0x6e, 0x78, 0xbd, 0x58, 0xef, 0x45, 0x3d, 0x5f, 0x6d, 0x80, 0xbd,
  0xc8, 0xa7, 0xf6, 0xbc, 0x90, 0x63, 0x91, 0xbd, 0x3e, 0x51, 0xf2, 0x3d,
  0xb8, 0xda, 0x14, 0xbc, 0x50, 0x12, 0x15, 0x3d, 0x00, 0xac, 0xd8, 0x3c,
  0x88, 0xb7, 0x8f, 0x3c, 0x30, 0xa5, 0x42, 0x3c, 0xf0, 0xa0, 0xb0, 0x3c,
  0xd6, 0x84, 0x4b, 0xbd, 0x7c, 0xeb, 0x96, 0xbc, 0xb0, 0x26, 0x21, 0x3c,
  0x74, 0xa4, 0xb6, 0xbd, 0xbe, 0x13, 0xfc, 0x3d, 0xb6, 0x66, 0xe2, 0x3d,
  0x60, 0xd6, 0xee, 0xbb, 0xb0, 0x9e, 0xe8, 0xbd, 0xa0, 0x4c, 0x87, 0x3d,
  0xe2, 0x5e, 0x2c, 0xbd, 0xd4, 0x45, 0x91, 0xbd, 0x28, 0x1f, 0xd7, 0x3c,
  0xfd, 0x5b, 0xa6, 0xbd, 0x08, 0x22, 0xcb, 0x3c, 0x82, 0x18, 0xf8, 0x3d,
  0x8a, 0xda, 0x96, 0xbd, 0x40, 0x41, 0x37, 0x3c, 0x40, 0x0d, 0x42, 0x3b,
  0xca, 0x56, 0x5d, 0xbd, 0xb8, 0xa6, 0x55, 0xbd, 0x36, 0x0e, 0xf9, 0x3d,
  0x70, 0x15, 0x8e, 0x3c, 0x00, 0x72, 0x92, 0x3d, 0x0e, 0x9e, 0xe7, 0x3d,
  0xe2, 0x5f, 0x3d, 0xbd, 0x70, 0xa9, 0x06, 0xbd, 0x04, 0xc6, 0x66, 0xbd,
  0x62, 0x54, 0xf8, 0x3d, 0xc2, 0x93, 0xbd, 0xbd, 0x40, 0x06, 0x4a, 0x3b,
  0x3c, 0xc4, 0xad, 0x3d, 0x7f, 0x6c, 0xb8, 0xbd, 0x3a, 0x3a, 0xfa, 0x3d,
  0xb0, 0xf6, 0x91, 0x3d, 0xc6, 0xff, 0x66, 0xbd, 0xf4, 0x86, 0x16, 0xbd,
  0x8a, 0x8f, 0x92, 0x3d, 0x58, 0xfc, 0xbe, 0x3d, 0xd4, 0xec, 0x1f, 0x3d,
  0xd0, 0x47, 0xdf, 0x3d, 0xae, 0xb8, 0xc6, 0x3d, 0x10, 0x0d, 0x51, 0xbd,
  0xd6, 0xb7, 0xb5, 0xbd, 0xb8, 0x90, 0xd1, 0xbc, 0xf4, 0x5d, 0xe4, 0x3d,
  0x40, 0xb3, 0x92, 0x3d, 0x3c, 0x2c, 0x5b, 0x3d, 0xf3, 0xe4, 0xf0, 0xbd,
  0x7a, 0x9a, 0x0b, 0xbd, 0x70, 0x25, 0x26, 0x3c, 0x4e, 0x33, 0x44, 0xbd,
  0x65, 0x5f, 0x8f, 0xbd, 0x58, 0xa3, 0xce, 0x3d, 0xda, 0xae, 0x9d, 0x3d,
  0xec, 0x5c, 0x14, 0x3d, 0xb8, 0xe7, 0xf0, 0xbd, 0x80, 0x9c, 0xa8, 0xba,
  0x88, 0xbc, 0xab, 0xbc, 0x18, 0xc7, 0xc7, 0xbc, 0xe1, 0xda, 0xcb, 0xbd,
  0xb8, 0x1f, 0xb6, 0x3d, 0xe8, 0x35, 0x18, 0x3d, 0xec, 0x1d, 0x50, 0x3d,
  0x78, 0xc3, 0xdc, 0x3c, 0x78, 0x03, 0x92, 0xbd, 0x4c, 0xe2, 0x49, 0xbd,
  0xa4, 0xeb, 0x67, 0x3d, 0x38, 0x8c, 0xcf, 0x3d, 0x80, 0x23, 0xb1, 0x3b,
  0xa8, 0xae, 0x4e, 0x3d, 0xc0, 0x4c, 0x26, 0x3d, 0x14, 0xf1, 0x8f, 0xbd,
  0xf6, 0x7d, 0x92, 0xbd, 0x80, 0x6d, 0xc2, 0x3d, 0x10, 0x88, 0x62, 0xbc,
  0x08, 0xf9, 0x08, 0x3d, 0xb4, 0xec, 0x0e, 0xbd, 0x80, 0x19, 0xd7, 0xba,
  0x3a, 0xcc, 0xd7, 0xbd, 0x56, 0x0d, 0xcd, 0x3d, 0x06, 0xe4, 0xe5, 0x3d,
  0x00, 0xa8, 0xc5, 0xbb, 0x4a, 0xea, 0x28, 0xbd, 0xc4, 0x98, 0xa4, 0x3d,
  0x6e, 0x19, 0xa5, 0x3d, 0x60, 0xce, 0xb4, 0x3b, 0x50, 0x6b, 0xfc, 0xbd,
  0x44, 0x8b, 0x15, 0x3d, 0x8e, 0x33, 0x80, 0x3d, 0xdc, 0x81, 0x0e, 0x3d,
  0xcc, 0xe6, 0x3d, 0xbd, 0xbc, 0x38, 0xd1, 0x3d, 0x76, 0x66, 0xc7, 0x3d,
  0x30, 0x0c, 0x79, 0x3d, 0x08, 0x15, 0xca, 0xbc, 0x16, 0x47, 0x81, 0xbd,
  0xc0, 0x4d, 0x04, 0x3c, 0x00, 0xcb, 0xb2, 0x3d, 0x98, 0x99, 0xc7, 0x3c,
  0x4a, 0xcd, 0x3a, 0xbd, 0xcd, 0x96, 0x03, 0x3e, 0x80, 0xc5, 0x6d, 0xbb,
  0x88, 0xf9, 0x72, 0x3d, 0xc0, 0xd1, 0x03, 0x3d, 0x9a, 0x1d, 0x62, 0xbd,
  0x1f, 0x4d, 0xb4, 0xbd, 0x90, 0x8f, 0x86, 0xbb, 0x00, 0x74, 0x3b, 0xb9,
  0x1e, 0x94, 0x81, 0x3d, 0x80, 0x12, 0x90, 0xbd, 0x80, 0x6c, 0xba, 0xbc,
  0x28, 0x2d, 0x5e, 0x3d, 0xb0, 0x15, 0x3a, 0x3c, 0x63, 0x41, 0xc4, 0xbd,
  0x42, 0x30, 0xc8, 0x3d, 0x30, 0xd0, 0xc2, 0x3d, 0xb6, 0xd7, 0xf9, 0x3d,
  0x06, 0x52, 0xc9, 0x3d, 0x79, 0x18, 0x03, 0xbe, 0xa0, 0xd8, 0x81, 0x3b,
  0xe0, 0xd0, 0xdc, 0x3d, 0x20, 0x5b, 0xad, 0x3b, 0xde, 0xb9, 0xb9, 0xbd,
  0x94, 0x5b, 0x43, 0x3d, 0x58, 0x4b, 0x30, 0xbc, 0x09, 0x38, 0xfd, 0xbd,
  0x3a, 0x1f, 0x9c, 0xbd, 0x94, 0x72, 0x95, 0xbc, 0x22, 0x8a, 0x35, 0xbd,
  0x8a, 0xdb, 0x75, 0xbd, 0x08, 0xc3, 0xab, 0xbd, 0xc8, 0x53, 0x32, 0x3d,
  0xa0, 0x42, 0xe8, 0xbd, 0x1a, 0x4a, 0x9f, 0x3d, 0x82, 0xcd, 0xee, 0xbd,
  0xfc, 0xbf, 0x23, 0x3d, 0xda, 0xfa, 0x99, 0x3d, 0xe0, 0x8a, 0x2c, 0xbc,
  0x2d, 0x8e, 0xd5, 0xbd, 0xe4, 0x10, 0xdc, 0x3d, 0x04, 0x9f, 0x7c, 0x3d,
  0x2c, 0xce, 0xd5, 0x3d, 0xc0, 0xd3, 0x02, 0xbc, 0x2c, 0x68, 0xea, 0xbc,
  0x58, 0xe4, 0x8f, 0x3d, 0x44, 0xad, 0xbd, 0xbd, 0x50, 0x0f, 0x56, 0x3c,
  0x30, 0x8a, 0x90, 0xbc, 0xa8, 0xef, 0xdd, 0xbd, 0x20, 0x40, 0xaa, 0xbd,
  0x20, 0x63, 0x92, 0xbb, 0x00, 0x48, 0x8d, 0xba, 0x70, 0xbc, 0x75, 0x3d,
  0x24, 0xe4, 0x02, 0xbe, 0xcc, 0xfd, 0x00, 0xbe, 0xbc, 0x92, 0x65, 0xbd,
  0xa7, 0x81, 0xc8, 0xbd, 0x18, 0x30, 0x50, 0x3d, 0x40, 0x44, 0xaa, 0xbd,
  0x14, 0x22, 0xa0, 0x3d, 0x60, 0x51, 0x81, 0x3c, 0xd8, 0x26, 0xf1, 0xbd,
  0x89, 0xa6, 0xf0, 0xbd, 0x90, 0x6d, 0xb9, 0xbd, 0xe1, 0x5e, 0x87, 0xbd,
  0xca, 0xab, 0x88, 0x3d, 0xaa, 0xff, 0x29, 0xbd, 0x2e, 0xd9, 0xb1, 0x3d,
  0x0e, 0xb3, 0x5b, 0xbd, 0x80, 0x9e, 0x90, 0x3c, 0x98, 0x94, 0x23, 0xbc,
  0xbe, 0x41, 0x93, 0xbd, 0x40, 0xdd, 0x01, 0x3c, 0x42, 0x2a, 0xcc, 0x3d,
  0xd0, 0x35, 0x93, 0xbb, 0x00, 0x15, 0x26, 0x3a, 0xf0, 0xe3, 0x52, 0x3c,
  0xf0, 0xed, 0x28, 0x3d, 0x36, 0x45, 0xfc, 0x3d, 0x74, 0xd7, 0x14, 0x3d,
  0x7e, 0x98, 0x61, 0xbd, 0x30, 0x95, 0xd3, 0xbb, 0x30, 0x48, 0x6d, 0x3d,
  0x80, 0x61, 0xc2, 0x3b, 0x64, 0xaa, 0x65, 0xbd, 0x9c, 0x29, 0x67, 0xbd,
  0x00, 0xa2, 0x5b, 0x3a, 0xe4, 0x13, 0xa7, 0x3d, 0xa0, 0x69, 0xc4, 0xbd,
  0x02, 0x4d, 0xa3, 0x3d, 0xd8, 0x27, 0xf1, 0x3d, 0x94, 0xbd, 0x90, 0xbd,
  0x7c, 0x46, 0xc5, 0xbc, 0x00, 0xde, 0xaa, 0xb9, 0x6a, 0xa1, 0xaa, 0x3d,
  0x79, 0x43, 0x90, 0xbd, 0x04, 0x94, 0x5b, 0x3d, 0x58, 0x06, 0xfe, 0x3c,
  0x28, 0x47, 0x6f, 0xbc, 0xaa, 0x7a, 0xd5, 0x3d, 0x98, 0xab, 0xb6, 0x3c,
  0x58, 0x18, 0x82, 0x3c, 0x6d, 0x0e, 0x8d, 0xbd, 0x17, 0x2a, 0xef, 0xbd,
  0x8a, 0xc8, 0xf8, 0xbd, 0xa8, 0xbc, 0x41, 0x3d, 0xd0, 0xb3, 0xfc, 0xbb,
  0x10, 0x03, 0xda, 0x3d, 0xf0, 0xf3, 0x1d, 0x3c, 0x49, 0x45, 0xf9, 0xbd,
  0x00, 0x5a, 0xf5, 0x3a, 0xe8, 0x4b, 0x95, 0xbd, 0xc4, 0x75, 0xa4, 0xbc,
  0xb6, 0xef, 0xa9, 0x3d, 0x18, 0x66, 0x24, 0xbc, 0xdb, 0x04, 0x85, 0xbd,
  0xf0, 0x1c, 0x9d, 0x3c, 0x2e, 0xd4, 0x58, 0xbd, 0xbc, 0x5c, 0xc7, 0xbc,
  0x82, 0x1b, 0x09, 0xbd, 0xdc, 0x75, 0x1c, 0x3d, 0x46, 0x37, 0x14, 0xbd,
  0xcc, 0x12, 0xe9, 0x3d, 0x1c, 0xd9, 0xed, 0x3d, 0x40, 0xcf, 0x00, 0xbb,
  0x42, 0x12, 0xde, 0x3d, 0x3c, 0x3d, 0x84, 0xbc, 0xac, 0xcd, 0xa0, 0xbc,
  0x6c, 0x1d, 0xe2, 0xbd, 0x5e, 0x93, 0x39, 0xbd, 0x78, 0xfc, 0xc7, 0xbc,
  0x3e, 0x38, 0xa9, 0xbd, 0xd8, 0x33, 0x43, 0x3d, 0x40, 0x38, 0xa7, 0xbd,
  0x94, 0xee, 0xc1, 0xbd, 0xcc, 0xb0, 0xd6, 0x3d, 0x98, 0xf1, 0x3e, 0xbd,
  0x68, 0x13, 0xf1, 0x3d, 0xc0, 0x44, 0x2e, 0x3d, 0x6a, 0x8c, 0xbe, 0x3d,
  0x6a, 0x37, 0x9f, 0xbd, 0x6a, 0x06, 0xde, 0x3d, 0x86, 0x60, 0xfb, 0x3d,
  0x00, 0xf7, 0xeb, 0x3a, 0xa8, 0x69, 0xdf, 0xbc, 0x9e, 0x8d, 0xcd, 0x3d,
  0x44, 0x85, 0xde, 0xbd, 0xbe, 0xdd, 0x91, 0x3d, 0x36, 0xbc, 0xe4, 0xbd,
  0x04, 0x35, 0x98, 0xbd, 0xc0, 0x23, 0xcd, 0x3b, 0x2f, 0x78, 0x01, 0xbe,
  0xc8, 0x01, 0x38, 0x3d, 0xbb, 0x36, 0xdc, 0xbd, 0xc0, 0xef, 0xbc, 0xbc,
  0x8c, 0xf6, 0x1a, 0xbd, 0xce, 0x0f, 0xac, 0xbd, 0x80, 0x10, 0x41, 0xbc,
  0xf6, 0x11, 0x72, 0xbd, 0x0e, 0x3c, 0x30, 0xbd, 0x94, 0x2b, 0xa4, 0xbc,
  0xda, 0xf3, 0x94, 0x3d, 0xcc, 0xad, 0xd6, 0xbd, 0x58, 0x6f, 0xcc, 0x3c,
  0xd8, 0x0a, 0x10, 0xbd, 0xa6, 0x5e, 0x19, 0xbd, 0xe4, 0x99, 0xb8, 0xbd,
  0x28, 0xe7, 0x25, 0x3d, 0x00, 0x98, 0x99, 0x3d, 0x4b, 0xe3, 0xd8, 0xbd,
  0xa0, 0xa6, 0xef, 0x3d, 0xd0, 0xd3, 0x1b, 0xbd, 0x63, 0x19, 0xd4, 0xbd,
  0xfc, 0x83, 0x60, 0xbd, 0x8e, 0x34, 0x80, 0x3d, 0x5c, 0x47, 0x2d, 0x3d,
  0x34, 0x69, 0x1d, 0xbd, 0xde, 0xba, 0x80, 0x3d, 0x22, 0x17, 0xb3, 0x3d,
  0xa0, 0xbc, 0xe8, 0x3b, 0xbc, 0xdb, 0x6d, 0x3d, 0xbe, 0xc9, 0x72, 0xbd,
  0x54, 0xcd, 0x2a, 0xbd, 0x00, 0x78, 0x8b, 0x3d, 0xdc, 0x79, 0xbc, 0xbc,
  0x9c, 0xb3, 0x55, 0xbd, 0x6e, 0x2b, 0xbd, 0x3d, 0xf6, 0xd1, 0xa9, 0xbd,
  0xc0, 0xcc, 0x1e, 0xbb, 0x36, 0xf8, 0x47, 0xbd, 0xf2, 0x19, 0xb1, 0x3d,
  0x48, 0x9b, 0x22, 0xbc, 0xf2, 0x75, 0xdf, 0xbd, 0x0c, 0x6b, 0x50, 0x3d,
  0x28, 0x71, 0x9c, 0xbc, 0xc4, 0x4a, 0xdb, 0xbc, 0x44, 0x90, 0x28, 0x3d,
  0x24, 0x6b, 0x51, 0x3d, 0x00, 0x1c, 0x05, 0xb9, 0x40, 0x34, 0xa9, 0x3b,
  0x9c, 0x06, 0xf5, 0x3d, 0xb0, 0xc1, 0x57, 0x3c, 0x76, 0xef, 0x76, 0xbd,
  0x32, 0xbe, 0x96, 0xbd, 0xc2, 0x80, 0x80, 0x3d, 0xbc, 0x14, 0x7b, 0xbd,
  0x68, 0x7a, 0xa6, 0xbc, 0x30, 0x61, 0x5b, 0x3d, 0x34, 0x90, 0x3e, 0x3d,
  0x66, 0x26, 0xa4, 0x3d, 0xfc, 0x88, 0x8a, 0x3d, 0xf4, 0xf4, 0x71, 0x3d,
  0x6e, 0xb2, 0x8e, 0x3d, 0x56, 0x51, 0xf8, 0xbd, 0x66, 0x63, 0x85, 0x3d,
  0x99, 0x36, 0xf8, 0xbd, 0x66, 0xc4, 0xaa, 0xbd, 0x2e, 0x0f, 0xf9, 0x3d,
  0xc0, 0xad, 0x6d, 0x3d, 0xbe, 0x3c, 0x82, 0x3d, 0xa9, 0x56, 0x00, 0xbe,
  0x68, 0x51, 0xdd, 0x3d, 0xea, 0xff, 0xf1, 0xbd, 0x00, 0xfe, 0xf5, 0x3b,
  0x04, 0x7e, 0x03, 0x3d, 0x64, 0x99, 0x3f, 0x3d, 0x8c, 0x8b, 0x45, 0x3d,
  0x4d, 0x8f, 0xaf, 0xbd, 0xae, 0x08, 0x8a, 0xbd, 0x8a, 0xeb, 0x15, 0xbd,
  0x2e, 0x8a, 0x8e, 0x3d, 0x4c, 0x7a, 0x62, 0x3d, 0x74, 0xd8, 0x4e, 0xbd,
  0x2f, 0x68, 0x01, 0x3e, 0x00, 0xbe, 0xab, 0xbb, 0x1c, 0xf1, 0x24, 0x3d,
  0x52, 0x8a, 0x23, 0xbd, 0x98, 0x1b, 0x9d, 0x3c, 0x70, 0x69, 0x71, 0x3d,
  0xa6, 0x72, 0x4f, 0xbd, 0xaa, 0x58, 0xce, 0xbd, 0xc0, 0x4c, 0x93, 0xbb,
  0x24, 0x85, 0x85, 0xbc, 0xb2, 0x6c, 0x84, 0xbd, 0xcc, 0x49, 0x23, 0xbd,
  0xe6, 0xb3, 0xe1, 0xbd, 0x15, 0x67, 0x83, 0xbd, 0x52, 0x29, 0xdb, 0x3d,
  0x87, 0x82, 0xc9, 0xbd, 0x98, 0xee, 0xc0, 0x3c, 0xed, 0xc9, 0xbb, 0xbd,
  0xc0, 0x28, 0xd3, 0xbc, 0xee, 0x65, 0x43, 0xbd, 0x38, 0x94, 0xdc, 0xbc,
  0x24, 0x05, 0x7c, 0xbd, 0x62, 0x34, 0x9f, 0xbd, 0x32, 0x67, 0x3d, 0xbd,
  0x6a, 0x5b, 0xc8, 0xbd, 0x00, 0xd8, 0x37, 0x3c, 0x22, 0xef, 0x08, 0xbd,
  0x8c, 0x76, 0xb3, 0x3d, 0x70, 0xdc, 0xf0, 0x3d, 0x2c, 0x4f, 0xc2, 0x3d,
  0x34, 0xe8, 0x99, 0xbd, 0x36, 0xb6, 0xb0, 0x3d, 0xf8, 0x2d, 0xd0, 0xbd,
  0xc0, 0x2c, 0x9b, 0x3b, 0x40, 0x3e, 0xbb, 0xbc, 0xfa, 0xbc, 0x9c, 0xbd,
  0x68, 0x2e, 0xd2, 0x3c, 0x95, 0xd0, 0xdc, 0xbd, 0xc0, 0xc5, 0x19, 0x3c,
  0x76, 0x12, 0xab, 0x3d, 0x82, 0x1e, 0x00, 0xbd, 0x20, 0xd8, 0x35, 0x3d,
  0x74, 0x10, 0xa1, 0xbd, 0xb0, 0xd7, 0xd7, 0xbd, 0xcb, 0x1e, 0x94, 0xbd,
  0x30, 0xca, 0x40, 0x3d, 0x8c, 0x54, 0x2f, 0xbd, 0x78, 0xe8, 0x8f, 0x3d,
  0x72, 0xdb, 0x55, 0xbd, 0x00, 0x46, 0x1d, 0x3c, 0x88, 0xf5, 0xf6, 0x3c,
  0x00, 0xd7, 0x11, 0xba, 0x61, 0xbb, 0xf6, 0xbd, 0xee, 0x5a, 0x40, 0xbd,
  0x68, 0xaa, 0xae, 0x3d, 0x40, 0xfa, 0x84, 0x3b, 0x80, 0x8f, 0xda, 0xbc,
  0xe8, 0x6d, 0xc8, 0x3c, 0x02, 0xbf, 0xb0, 0x3d, 0x88, 0xa5, 0xb2, 0x3c,
  0x8a, 0xce, 0xe2, 0x3d, 0x00, 0x14, 0xf0, 0x3b, 0x18, 0x50, 0xe8, 0x3d,
  0x66, 0x2e, 0x81, 0xbd, 0x80, 0x70, 0x98, 0x3c, 0x08, 0x94, 0x91, 0x3c,
  0x24, 0x0b, 0xf1, 0xbd, 0x5c, 0x28, 0x8f, 0x3d, 0x4a, 0xe8, 0xff, 0x3d,
  0xc0, 0x3a, 0x9b, 0x3b, 0x48, 0x60, 0xc5, 0xbd, 0x28, 0x54, 0xb2, 0xbd,
  0xfc, 0x15, 0xe1, 0xbc, 0x64, 0x4a, 0x8a, 0x3d, 0x20, 0x27, 0xc8, 0x3c,
  0xae, 0xa5, 0x95, 0x3d, 0xf0, 0x71, 0xcc, 0x3c, 0xee, 0x17, 0x53, 0xbd,
  0xb0, 0x2f, 0xf2, 0xbb, 0x6a, 0x81, 0xe6, 0x3d, 0x18, 0xf9, 0xdf, 0x3d,
  0xae, 0xc2, 0xa8, 0xbd, 0xf4, 0x14, 0xb7, 0xbd, 0xa0, 0x0b, 0x86, 0xbd,
  0x4c, 0xcd, 0x66, 0x3d, 0xf2, 0x90, 0xe5, 0x3d, 0xfb, 0xcd, 0xca, 0xbd,
  0xb0, 0x32, 0xb3, 0x3d, 0x6c, 0xe0, 0xdf, 0x3d, 0x58, 0xba, 0x76, 0x3d,
  0x50, 0x73, 0xe4, 0xbc, 0xee, 0xa2, 0xcc, 0xbd, 0x1a, 0x37, 0xe0, 0x3d,
  0x8e, 0x8a, 0x88, 0xbd, 0xa4, 0x4e, 0x15, 0x3d, 0xc0, 0xbe, 0xe7, 0x3d,
  0xda, 0x23, 0xf7, 0xbd, 0xaa, 0xe0, 0x43, 0xbd, 0xb0, 0x4e, 0x0c, 0xbc,
  0x40, 0xe8, 0xbd, 0x3c, 0x50, 0x15, 0x6b, 0x3d, 0x74, 0x91, 0x04, 0xbd,
  0x68, 0x8d, 0xf4, 0xbc, 0x9c, 0x42, 0xa3, 0x3d, 0x0a, 0x8a, 0x98, 0x3d,
  0xc2, 0x58, 0x66, 0xbd, 0x66, 0x69, 0x4f, 0xbd, 0x88, 0xfc, 0xf2, 0x3c,
  0x6a, 0x57, 0x05, 0xbd, 0x60, 0x48, 0xaa, 0xbd, 0x90, 0xac, 0xc1, 0x3c,
  0xc7, 0x78, 0xff, 0xbd, 0x9c, 0x51, 0xe8, 0xbd, 0xa1, 0x36, 0xdf, 0xbd,
  0x6c, 0x4e, 0x85, 0xbc, 0xa2, 0x22, 0x99, 0xbd, 0xd0, 0xe9, 0x4a, 0x3c,
  0x58, 0xdb, 0xab, 0x3c, 0x18, 0xc5, 0xae, 0x3c, 0x52, 0x5e, 0x49, 0xbd,
  0x50, 0xbe, 0xa3, 0x3c, 0x9b, 0xfc, 0xec, 0xbd, 0xc0, 0xe7, 0x32, 0x3b,
  0xb8, 0x04, 0xf3, 0xbc, 0x40, 0x54, 0xa9, 0x3b, 0xe0, 0xa4, 0x04, 0x3c,
  0x3c, 0x8f, 0xa6, 0xbd, 0x86, 0x4a, 0xf5, 0x3d, 0x50, 0xae, 0xb4, 0xbd,
  0x92, 0x27, 0x02, 0xbd, 0x12, 0xfb, 0x8b, 0x3d, 0x82, 0x0b, 0x1d, 0xbd,
  0x38, 0x69, 0x5b, 0x3d, 0x98, 0xb6, 0xda, 0x3d, 0x98, 0x11, 0x67, 0x3d,
  0x46, 0x32, 0xd9, 0xbd, 0xb4, 0x93, 0xfe, 0xbd, 0xba, 0x1e, 0x5a, 0xbd,
  0xd0, 0xee, 0x77, 0x3c, 0xc4, 0x0a, 0x9f, 0xbc, 0xc8, 0x33, 0xc1, 0xbc,
  0x5e, 0xda, 0x16, 0xbd, 0x00, 0xd6, 0x90, 0x3b, 0xc8, 0xf1, 0x0c, 0x3d,
  0xfe, 0x4c, 0x66, 0xbd, 0x64, 0x9d, 0xb0, 0x3d, 0xd2, 0x03, 0x31, 0xbd,
  0x90, 0x90, 0x62, 0x3c, 0x7e, 0x7d, 0x6c, 0xbd, 0x5c, 0x76, 0x41, 0xbd,
  0x20, 0x79, 0x1e, 0x3d, 0x00, 0x9e, 0x73, 0x3b, 0xc5, 0x8e, 0xf9, 0xbd,
  0xb8, 0x6a, 0x39, 0xbc, 0x58, 0xe8, 0xa3, 0xbc, 0x3c, 0x17, 0x83, 0x3d,
  0x3d, 0x75, 0xb6, 0xbd, 0x7c, 0xe6, 0x8f, 0x3d, 0xb1, 0xe6, 0xdc, 0xbd,
  0x64, 0x69, 0x37, 0x3d, 0x40, 0x7b, 0x1e, 0x3b, 0x34, 0x9c, 0xaa, 0x3d,
  0xd4, 0x45, 0x3b, 0xbd, 0xc8, 0xd2, 0xe6, 0x3d, 0x2b, 0x0e, 0x02, 0x3e,
  0xb0, 0xbf, 0x2b, 0xbc, 0x98, 0x41, 0xc0, 0x3c, 0xc0, 0x20, 0x59, 0x3d,
  0xea, 0x68, 0x26, 0xbd, 0xb8, 0xa4, 0x4a, 0x3d, 0xf8, 0xd5, 0x7e, 0xbd,
  0x98, 0x4c, 0xeb, 0x3d, 0xa6, 0x49, 0x60, 0xbd, 0xec, 0xae, 0xb8, 0x3d,
  0x20, 0x37, 0xf6, 0xbd, 0x74, 0x7b, 0xf1, 0xbc, 0x6a, 0xd3, 0xa9, 0xbd,
  0x95, 0xce, 0xf0, 0xbd, 0x9c, 0x19, 0x64, 0xbd, 0x91, 0x82, 0x81, 0xbd,
  0xe6, 0xa9, 0xd5, 0x3d, 0x39, 0x70, 0xeb, 0xbd, 0x00, 0xd8, 0xf9, 0x38,
  0x80, 0xbd, 0xa1, 0x3d, 0x44, 0xa0, 0x00, 0x3d, 0x5c, 0x6e, 0x96, 0xbc,
  0xa0, 0x07, 0xac, 0x3c, 0xac, 0x46, 0x7c, 0x3d, 0x8c, 0x8b, 0xab, 0xbc,
  0xaa, 0x64, 0xe1, 0xbd, 0xfd, 0xf1, 0xb7, 0xbd, 0xe4, 0x63, 0x0f, 0x3d,
  0x42, 0x5d, 0x10, 0xbd, 0x74, 0x48, 0x4f, 0x3d, 0x9a, 0xcd, 0xd9, 0x3d,
  0xb0, 0xdb, 0xf6, 0x3c, 0x05, 0x03, 0x02, 0xbe, 0x7c, 0x56, 0xdb, 0xbc,
  0x12, 0x01, 0x9e, 0x3d, 0x52, 0x61, 0xe7, 0x3d, 0x12, 0x33, 0xfe, 0x3d,
  0x3c, 0x5d, 0x6d, 0xbd, 0xe2, 0x35, 0xa8, 0x3d, 0x41, 0x94, 0xa4, 0xbd,
  0xd8, 0x42, 0x87, 0x3d, 0x3e, 0xbc, 0xa1, 0xbd, 0xa4, 0xb6, 0x56, 0x3d,
  0x8b, 0x28, 0xd2, 0xbd, 0x76, 0xd5, 0xbf, 0x3d, 0x20, 0x41, 0xaa, 0xbc,
  0x6b, 0x6d, 0x02, 0x3e, 0x4e, 0x71, 0xe3, 0x3d, 0xdd, 0x09, 0x99, 0xbd,
  0x28, 0xa0, 0xd0, 0xbd, 0x64, 0xe6, 0xda, 0x3d, 0x17, 0x0e, 0xf9, 0xbd,
  0x00, 0xb4, 0xcc, 0x3c, 0xac, 0x64, 0x89, 0x3d, 0x68, 0x51, 0x65, 0xbd,
  0x2e, 0x79, 0x98, 0xbd, 0xd0, 0x87, 0x23, 0x3d, 0x96, 0x7e, 0x00, 0xbd,
  0xbc, 0x47, 0x5c, 0xbd, 0x3c, 0xb4, 0xf1, 0xbc, 0x48, 0x43, 0xd7, 0xbd,
  0xd3, 0x0f, 0xa9, 0xbd, 0xaa, 0xef, 0x46, 0xbd, 0xc2, 0xbd, 0xfe, 0x3d,
  0xcb, 0x22, 0xc2, 0xbd, 0x93, 0x31, 0x03, 0xbe, 0x2c, 0x5d, 0x14, 0xbd,
  0xf0, 0x04, 0xf4, 0x3c, 0x90, 0x88, 0x68, 0x3d, 0x6e, 0xcd, 0x97, 0x3d,
  0x80, 0x56, 0x4b, 0x3b, 0x92, 0xe6, 0x2c, 0xbd, 0xc4, 0x28, 0x2d, 0x3d,
  0x84, 0x2d, 0x1f, 0x3d, 0x14, 0x9d, 0x10, 0x3d, 0x00, 0xcc, 0xa0, 0x3d,
  0x6c, 0xaa, 0x85, 0xbd, 0x20, 0xe4, 0xe2, 0x3b, 0x00, 0xa3, 0x31, 0xba,
  0xf4, 0xf5, 0xbc, 0x3d, 0x40, 0x53, 0xc6, 0x3b, 0xc4, 0xb1, 0x9d, 0x3d,
  0xb8, 0xbc, 0x1f, 0x3d, 0xc4, 0x4f, 0x14, 0x3d, 0x14, 0x6d, 0x93, 0x3d,
  0xa6, 0x59, 0x74, 0xbd, 0x68, 0xb9, 0xf4, 0x3d, 0x84, 0x57, 0x99, 0xbc,
  0x1f, 0xd0, 0xf2, 0xbd, 0x4a, 0x19, 0x53, 0xbd, 0xf8, 0xe8, 0xca, 0xbc,
  0xc2, 0x72, 0x80, 0x3d, 0x00, 0x9b, 0xf7, 0x3c, 0xf4, 0x11, 0xeb, 0x3d,
  0x96, 0xf0, 0x95, 0x3d, 0x05, 0x64, 0x82, 0xbd, 0x51, 0x2d, 0xb6, 0xbd,
  0x75, 0x61, 0x9f, 0xbd, 0xaf, 0xea, 0xd7, 0xbd, 0x30, 0x19, 0x1b, 0xbc,
  0xac, 0xa5, 0x1f, 0xbd, 0x6d, 0x60, 0xd5, 0xbd, 0xc0, 0xb5, 0x22, 0x3b,
  0xa4, 0xbe, 0xba, 0x3d, 0x65, 0x00, 0x82, 0xbd, 0x34, 0x7d, 0x0a, 0x3d,
  0x3e, 0xca, 0x95, 0x3d, 0x8e, 0xcf, 0xee, 0xbd, 0x36, 0x5f, 0x57, 0xbd,
  0x80, 0x44, 0x9f, 0x3d, 0x64, 0xca, 0x5d, 0x3d, 0x94, 0x66, 0x54, 0x3d,
  0xa6, 0xd5, 0xeb, 0x3d, 0x7c, 0xcd, 0x63, 0x3d, 0x4e, 0x15, 0x60, 0xbd,
  0x9b, 0x27, 0xcd, 0xbd, 0x36, 0xd8, 0x72, 0xbd, 0x6c, 0x9b, 0x63, 0x3d,
  0x0c, 0x35, 0x7f, 0x3d, 0x06, 0xe1, 0xa8, 0xbd, 0x7a, 0x84, 0xc4, 0x3d,
  0x80, 0x31, 0x5a, 0x3c, 0x24, 0x5d, 0x24, 0x3d, 0x22, 0x5b, 0x74, 0xbd,
  0x2c, 0x12, 0xb5, 0x3d, 0x68, 0x60, 0x68, 0xbd, 0xd0, 0x17, 0x75, 0x3c,
  0x94, 0x88, 0x8e, 0x3d, 0x8c, 0x66, 0x9f, 0x3d, 0xd6, 0x75, 0x0e, 0xbd,
  0x8e, 0xc3, 0x53, 0xbd, 0xc0, 0x24, 0x61, 0x3d, 0xd0, 0xc6, 0x70, 0x3c,
  0x80, 0x45, 0xf1, 0x3b, 0xe6, 0x7b, 0xff, 0x3d, 0xba, 0x5c, 0x85, 0x3d,
  0xd8, 0x5d, 0x4a, 0x3d, 0xd1, 0xeb, 0x00, 0x3e, 0x74, 0x01, 0xe7, 0x3d,
  0x90, 0xab, 0x6b, 0x3c, 0xae, 0x50, 0xf5, 0xbd, 0x90, 0xb4, 0x38, 0xbd,
  0xfe, 0x81, 0x79, 0xbd, 0x3a, 0xbc, 0x84, 0x3d, 0x54, 0xb9, 0x85, 0xbd,
  0x63, 0x23, 0xfb, 0xbd, 0x14, 0x36, 0x24, 0xbd, 0x1c, 0x6e, 0x73, 0x3d,
  0xe0, 0x71, 0x10, 0xbc, 0x20, 0x74, 0x26, 0x3d, 0xb8, 0xa2, 0xe0, 0x3c,
  0x20, 0x33, 0xcc, 0x3c, 0x8a, 0x69, 0xbe, 0x3d, 0xb3, 0x45, 0x80, 0xbd,
  0xaa, 0x6b, 0x88, 0x3d, 0x70, 0x1f, 0x95, 0x3c, 0x40, 0x07, 0x25, 0xbb,
  0xe6, 0x98, 0x25, 0xbd, 0xcc, 0x0e, 0x69, 0xbd, 0x40, 0xba, 0xae, 0x3b,
  0xce, 0x93, 0x83, 0x3d, 0x48, 0xb2, 0x32, 0x3d, 0xae, 0x45, 0xce, 0x3d,
  0x24, 0x8a, 0x4f, 0xbd, 0x88, 0x44, 0xa8, 0x3d, 0x0c, 0x3a, 0xa5, 0xbd,
  0xda, 0x3a, 0x36, 0xbd, 0x9c, 0xd3, 0x3b, 0xbd, 0x90, 0x78, 0xf9, 0x3c,
  0x68, 0x85, 0x01, 0xbe, 0xa8, 0xbb, 0xbc, 0x3c, 0x18, 0x95, 0x56, 0x3d,
  0x58, 0x7f, 0x7a, 0x3d, 0xda, 0x56, 0xe5, 0x3d, 0xd6, 0xd9, 0xb4, 0x3d,
  0xc4, 0xa3, 0xa7, 0xbc, 0x0d, 0xd9, 0xfb, 0xbd, 0x60, 0x9b, 0x01, 0xbc,
  0x40, 0xaf, 0xc7, 0x3b, 0x20, 0x15, 0x19, 0x3d, 0x69, 0x22, 0xf5, 0xbd,
  0xe0, 0x57, 0xea, 0xbb, 0xb6, 0xdc, 0xe3, 0x3d, 0x42, 0xf3, 0xd6, 0x3d,
  0x60, 0x30, 0x25, 0xbd, 0x44, 0x0e, 0x6d, 0xbd, 0xf6, 0xb6, 0xdc, 0x3d,
  0x00, 0xfa, 0xa8, 0x3c, 0x45, 0x99, 0xca, 0xbd, 0x76, 0xa3, 0xd4, 0xbd,
  0x60, 0xc1, 0x9f, 0xbd, 0x4c, 0x79, 0xba, 0xbd, 0x74, 0xb3, 0x35, 0xbd,
  0x8c, 0x55, 0x79, 0x3d, 0x8a, 0xcb, 0xe9, 0x3d, 0xcc, 0xcb, 0xa0, 0xbc,
  0x00, 0xc4, 0x3c, 0x3b, 0xb4, 0x95, 0x3d, 0x3d, 0xac, 0xd8, 0x8d, 0xbd,
  0xf8, 0xd3, 0x86, 0x3d, 0x10, 0x53, 0xc9, 0x3c, 0xf4, 0x57, 0xef, 0xbd,
  0x28, 0x32, 0xb8, 0x3d, 0xa0, 0x29, 0xa2, 0xbc, 0x7e, 0xaa, 0xa0, 0x3d,
  0x5b, 0x94, 0x80, 0xbd, 0xf8, 0x4e, 0xd6, 0x3c, 0xe8, 0xa7, 0x12, 0x3d,
  0xe0, 0x11, 0x23, 0x3d, 0x7e, 0x13, 0xf2, 0xbd, 0x1e, 0x67, 0x38, 0xbd,
  0x58, 0xd8, 0x33, 0x3d, 0x96, 0xbe, 0x9f, 0xbd, 0x91, 0x5b, 0x99, 0xbd,
  0x14, 0x1d, 0xb6, 0xbc, 0x10, 0xbf, 0x68, 0x3c, 0x0c, 0x7a, 0xbc, 0xbc,
  0xac, 0x52, 0x70, 0xbd, 0x66, 0xe6, 0xc6, 0x3d, 0x72, 0x3c, 0x42, 0xbd,
  0xc8, 0x0c, 0x77, 0xbc, 0xa6, 0x99, 0xd9, 0x3d, 0x4c, 0xaa, 0x34, 0xbd,
  0xee, 0x33, 0x8e, 0x3d, 0x80, 0x49, 0x49, 0x3b, 0x20, 0x15, 0x07, 0x3c,
  0x80, 0x4b, 0xbe, 0x3c, 0x32, 0x0e, 0xb5, 0xbd, 0xb2, 0x3f, 0x06, 0xbd,
  0xc4, 0x54, 0xaf, 0xbc, 0x53, 0x3a, 0x00, 0x3e, 0xdc, 0x97, 0x3d, 0x3d,
  0x9a, 0x5e, 0xa2, 0x3d, 0x28, 0x25, 0xde, 0xbc, 0xc8, 0x28, 0x82, 0x3d,
  0x22, 0x97, 0x70, 0xbd, 0x16, 0xc6, 0x9c, 0x3d, 0xec, 0x09, 0x3c, 0x3d,
  0x10, 0x63, 0xfd, 0xbc, 0xb6, 0xfb, 0xe1, 0x3d, 0x90, 0xfb, 0x09, 0xbc,
  0x3b, 0x35, 0xd3, 0xbd, 0x50, 0xfb, 0xa9, 0xbc, 0xf0, 0xf2, 0xd7, 0x3d,
  0xec, 0xda, 0xc1, 0x3d, 0x68, 0xb6, 0x42, 0x3d, 0x60, 0x4b, 0xae, 0xbd,
  0x48, 0x0b, 0x4e, 0xbd, 0xe2, 0x85, 0x25, 0xbd, 0x90, 0x4d, 0xd7, 0xbd,
  0x7a, 0x01, 0xfe, 0xbd, 0x16, 0x01, 0xae, 0x3d, 0x38, 0xd4, 0x90, 0xbd,
  0x48, 0x9f, 0xa8, 0x3c, 0x87, 0xa9, 0x03, 0x3e, 0xbe, 0x9b, 0xd1, 0x3d,
  0xe8, 0xc3, 0x55, 0xbc, 0x80, 0x8e, 0x01, 0x3b, 0x80, 0xb7, 0x07, 0x3b,
  0x28, 0x07, 0xe6, 0x3c, 0x00, 0x9b, 0xe8, 0x3d, 0xca, 0x46, 0xe7, 0x3d,
  0xb0, 0x96, 0x44, 0x3c, 0x16, 0xbe, 0xbc, 0x3d, 0xc6, 0x54, 0x97, 0x3d,
  0xc4, 0x99, 0x1b, 0x3d, 0x04, 0x13, 0x57, 0xbd, 0x2a, 0xa1, 0x99, 0x3d,
  0xe0, 0x1c, 0x4c, 0x3c, 0xc0, 0x91, 0x91, 0xbb, 0xb0, 0x68, 0x70, 0x3d,
  0xf6, 0x19, 0xa0, 0x3d, 0xd0, 0x87, 0x57, 0x3c, 0x94, 0x85, 0x42, 0xbd,
  0x9c, 0x68, 0xc0, 0x3d, 0x2c, 0xd4, 0xad, 0x3d, 0x28, 0x3b, 0x8c, 0x3c,
  0xd4, 0xc2, 0xc9, 0x3d, 0x70, 0xf1, 0x60, 0xbc, 0x50, 0x31, 0x68, 0x3d,
  0x1a, 0xee, 0x22, 0xbd, 0x00, 0x12, 0x67, 0xbb, 0x54, 0x08, 0x9c, 0x3d,
  0xb6, 0x8c, 0xbd, 0xbd, 0x08, 0x06, 0xf2, 0xbc, 0x2a, 0x38, 0xbf, 0x3d,
  0xf8, 0x6f, 0xc6, 0x3d, 0xd4, 0x9a, 0x82, 0x3d, 0x65, 0x3e, 0x02, 0x3e,
  0xbc, 0xe4, 0x03, 0xbe, 0x46, 0x5d, 0xa5, 0x3d, 0x88, 0x69, 0x26, 0xbc,
  0xa0, 0x25, 0xd6, 0x3d, 0x84, 0xe1, 0xf0, 0xbd, 0xf0, 0x79, 0x20, 0x3d,
  0x02, 0xa9, 0x8a, 0xbd, 0x42, 0xa0, 0x9b, 0x3d, 0xe4, 0xf8, 0x5a, 0xbd,
  0x30, 0xae, 0x48, 0xbc, 0x94, 0x30, 0x47, 0x3d, 0x8c, 0x6e, 0x8c, 0xbd,
  0x25, 0x97, 0x91, 0xbd, 0x90, 0xa4, 0x3f, 0xbc, 0xa4, 0x77, 0x26, 0xbd,
  0x74, 0xc9, 0xad, 0xbd, 0x4b, 0xa7, 0xcf, 0xbd, 0x20, 0x6b, 0x25, 0x3d,
  0x34, 0x91, 0x82, 0xbd, 0xae, 0x31, 0xac, 0xbd, 0x00, 0x10, 0x1c, 0xbb,
  0x20, 0x09, 0x99, 0x3d, 0x70, 0xf8, 0x2b, 0x3c, 0xa0, 0x0d, 0x55, 0x3d,
  0x38, 0x62, 0x27, 0xbc, 0xf6, 0x61, 0xf8, 0x3d, 0x00, 0xa5, 0xab, 0xbb,
  0xc4, 0x6c, 0x22, 0x3d, 0x8a, 0x51, 0x5f, 0xbd, 0xbc, 0x2d, 0xdf, 0xbd,
  0x4c, 0x67, 0x37, 0x3d, 0x3a, 0x67, 0xab, 0xbd, 0x16, 0xcd, 0xed, 0x3d,
  0xb2, 0x6c, 0xff, 0x3d, 0x96, 0x11, 0xbb, 0x3d, 0x30, 0x39, 0x8b, 0xbd,
  0xe0, 0xc7, 0x99, 0xbd, 0x8c, 0x08, 0x4e, 0x3d, 0x8c, 0x71, 0xa9, 0x3d,
  0x60, 0xda, 0x39, 0xbc, 0x7c, 0xdb, 0xa5, 0xbd, 0xb8, 0x68, 0xdb, 0xbd,
  0x67, 0x1d, 0xb8, 0xbd, 0x70, 0x83, 0xc6, 0xbc, 0x7e, 0x84, 0xf6, 0x3d,
  0xea, 0x2e, 0x63, 0xbd, 0x23, 0x7b, 0x00, 0xbe, 0xb0, 0xcf, 0xa4, 0xbc,
  0x57, 0xc8, 0xb9, 0xbd, 0xdc, 0x96, 0x08, 0x3d, 0x84, 0x33, 0xa8, 0xbd,
  0x12, 0x3b, 0xb7, 0x3d, 0xc2, 0xde, 0xa9, 0x3d, 0xca, 0x21, 0xc9, 0x3d,
  0xec, 0x39, 0x15, 0x3d, 0x2e, 0x93, 0x74, 0xbd, 0x8c, 0x6f, 0xac, 0x3d,
  0xce, 0xd9, 0x0a, 0xbd, 0x18, 0xe0, 0xf7, 0xbc, 0xa4, 0x71, 0x56, 0x3d,
  0x50, 0x5f, 0x61, 0x3d, 0x40, 0xd4, 0xfb, 0x3c, 0xa0, 0xe5, 0x00, 0x3d,
  0xe0, 0x24, 0x0b, 0xbc, 0x9e, 0x43, 0x00, 0xbe, 0x40, 0x34, 0x53, 0x3c,
  0xbd, 0x8c, 0x01, 0xbe, 0x80, 0x4b, 0xb7, 0x3b, 0x1a, 0xeb, 0x83, 0x3d,
  0xa4, 0x07, 0xae, 0xbc, 0xe8, 0x6a, 0x56, 0x3d, 0x1c, 0x64, 0xa2, 0xbd,
  0x48, 0x1b, 0x8c, 0xbd, 0x92, 0xcf, 0x62, 0xbd, 0x00, 0x2e, 0xc0, 0xbc,
  0x39, 0x2c, 0xcb, 0xbd, 0x46, 0x19, 0x92, 0x3d, 0x3a, 0x34, 0xa0, 0x3d,
  0x80, 0x89, 0x90, 0x3b, 0x6e, 0x1a, 0xeb, 0x3d, 0xa0, 0x23, 0x73, 0x3d,
  0x4c, 0x57, 0x5b, 0x3d, 0x64, 0xf1, 0x43, 0xbd, 0x00, 0x3f, 0x43, 0xbb,
  0xcc, 0x96, 0xa5, 0xbc, 0xac, 0xe2, 0x13, 0x3d, 0x86, 0xd6, 0xd6, 0xbd,
  0x8c, 0xd5, 0xe5, 0xbd, 0x12, 0x00, 0x96, 0x3d, 0xc0, 0xee, 0xef, 0x3c,
  0x91, 0xd8, 0xda, 0xbd, 0x08, 0x91, 0xb5, 0xbd, 0x64, 0x23, 0x46, 0xbd,
  0x50, 0xe5, 0xb1, 0x3d, 0x58, 0x22, 0x6b, 0xbd, 0x8a, 0x50, 0xdd, 0x3d,
  0x54, 0xe0, 0x39, 0x3d, 0xca, 0xee, 0x55, 0xbd, 0x04, 0xbf, 0x85, 0xbd,
  0xeb, 0x30, 0x02, 0x3e, 0x18, 0x1a, 0x3b, 0x3d, 0x6a, 0x82, 0xd9, 0x3d,
  0xb4, 0xc2, 0xbe, 0xbd, 0x90, 0x38, 0x43, 0xbc, 0x70, 0x6c, 0x08, 0x3d,
  0x64, 0x2b, 0x30, 0xbd, 0x72, 0xf7, 0x98, 0x3d, 0xb6, 0x05, 0xdd, 0x3d,
  0x14, 0x50, 0xdf, 0x3d, 0x20, 0x71, 0xa6, 0x3c, 0xb5, 0x1e, 0xc8, 0xbd,
  0x70, 0x2e, 0x48, 0x3c, 0x34, 0x43, 0x80, 0x3d, 0x78, 0xa1, 0x6e, 0x3d,
  0xc0, 0x73, 0x32, 0xbb, 0xac, 0x1d, 0x91, 0xbc, 0xb7, 0x86, 0x93, 0xbd,
  0x57, 0x8b, 0xdd, 0xbd, 0xa1, 0x6c, 0x9c, 0xbd, 0x00, 0xa8, 0xdb, 0xbd,
  0xf0, 0x81, 0x42, 0xbd, 0x5c, 0x4d, 0xb7, 0x3d, 0x62, 0xc3, 0xd8, 0xbd,
  0x70, 0xca, 0x3e, 0xbc, 0x4f, 0x1b, 0xd9, 0xbd, 0x08, 0x6e, 0x14, 0xbc,
  0x26, 0x1d, 0xc5, 0xbd, 0x64, 0x65, 0x4e, 0xbd, 0x68, 0x7e, 0xdd, 0x3c,
  0xcc, 0x1b, 0x63, 0x3d, 0x8c, 0xf9, 0x1a, 0xbd, 0xc6, 0x22, 0xa5, 0x3d,
  0xd8, 0xc2, 0xb5, 0x3c, 0x66, 0x82, 0xb0, 0x3d, 0x58, 0x9d, 0xff, 0xbd,
  0xe5, 0xeb, 0xe8, 0xbd, 0x52, 0x38, 0xca, 0x3d, 0x1a, 0xb1, 0xad, 0xbd,
  0x1e, 0x64, 0x97, 0x3d, 0x58, 0x82, 0xdd, 0x3c, 0xcb, 0x4b, 0x81, 0xbd,
  0xfc, 0x0a, 0x36, 0x3d, 0x1e, 0x2b, 0xa8, 0x3d, 0x3b, 0x1e, 0xce, 0xbd,
  0x1c, 0xe0, 0x7b, 0x3d, 0x26, 0xff, 0xff, 0xff, 0x04, 0x00, 0x00, 0x00,
  0x08, 0x00, 0x00, 0x00, 0x0c, 0x49, 0x1e, 0xbd, 0x0c, 0x49, 0x1e, 0x3d,
  0x3a, 0xff, 0xff, 0xff, 0x04, 0x00, 0x00, 0x00, 0x10, 0x00, 0x00, 0x00,
  0x18, 0xc8, 0x24, 0x3e, 0xba, 0x9b, 0xde, 0xbe, 0xa0, 0x14, 0x84, 0x3f,
  0x80, 0x5b, 0x47, 0x3c, 0x56, 0xff, 0xff, 0xff, 0x04, 0x00, 0x00, 0x00,
  0x08, 0x00, 0x00, 0x00, 0x58, 0x29, 0x7a, 0xbe, 0xc0, 0x1e, 0xcc, 0xbe,
  0xbc, 0xfb, 0xff, 0xff, 0xc0, 0xfb, 0xff, 0xff, 0x0f, 0x00, 0x00, 0x00,
  0x4d, 0x4c, 0x49, 0x52, 0x20, 0x43, 0x6f, 0x6e, 0x76, 0x65, 0x72, 0x74,
  0x65, 0x64, 0x2e, 0x00, 0x01, 0x00, 0x00, 0x00, 0x14, 0x00, 0x00, 0x00,
  0x00, 0x00, 0x0e, 0x00, 0x18, 0x00, 0x14, 0x00, 0x10, 0x00, 0x0c, 0x00,
  0x08, 0x00, 0x04, 0x00, 0x0e, 0x00, 0x00, 0x00, 0x14, 0x00, 0x00, 0x00,
  0x1c, 0x00, 0x00, 0x00, 0x24, 0x01, 0x00, 0x00, 0x28, 0x01, 0x00, 0x00,
  0x2c, 0x01, 0x00, 0x00, 0x04, 0x00, 0x00, 0x00, 0x6d, 0x61, 0x69, 0x6e,
  0x00, 0x00, 0x00, 0x00, 0x04, 0x00, 0x00, 0x00, 0xcc, 0x00, 0x00, 0x00,
  0x84, 0x00, 0x00, 0x00, 0x50, 0x00, 0x00, 0x00, 0x14, 0x00, 0x00, 0x00,
  0x00, 0x00, 0x0e, 0x00, 0x1a, 0x00, 0x14, 0x00, 0x10, 0x00, 0x0c, 0x00,
  0x0b, 0x00, 0x04, 0x00, 0x0e, 0x00, 0x00, 0x00, 0x1c, 0x00, 0x00, 0x00,
  0x00, 0x00, 0x00, 0x09, 0x1c, 0x00, 0x00, 0x00, 0x20, 0x00, 0x00, 0x00,
  0x01, 0x00, 0x00, 0x00, 0x00, 0x00, 0x06, 0x00, 0x08, 0x00, 0x04, 0x00,
  0x06, 0x00, 0x00, 0x00, 0x00, 0x00, 0x80, 0x3f, 0x01, 0x00, 0x00, 0x00,
  0x08, 0x00, 0x00, 0x00, 0x01, 0x00, 0x00, 0x00, 0x07, 0x00, 0x00, 0x00,
  0x9a, 0xff, 0xff, 0xff, 0x10, 0x00, 0x00, 0x00, 0x00, 0x00, 0x00, 0x08,
  0x0c, 0x00, 0x00, 0x00, 0x10, 0x00, 0x00, 0x00, 0x84, 0xfc, 0xff, 0xff,
  0x01, 0x00, 0x00, 0x00, 0x07, 0x00, 0x00, 0x00, 0x03, 0x00, 0x00, 0x00,
  0x06, 0x00, 0x00, 0x00, 0x01, 0x00, 0x00, 0x00, 0x03, 0x00, 0x00, 0x00,
  0xca, 0xff, 0xff, 0xff, 0x10, 0x00, 0x00, 0x00, 0x00, 0x00, 0x00, 0x08,
  0x10, 0x00, 0x00, 0x00, 0x14, 0x00, 0x00, 0x00, 0xba, 0xff, 0xff, 0xff,
  0x00, 0x00, 0x00, 0x01, 0x01, 0x00, 0x00, 0x00, 0x06, 0x00, 0x00, 0x00,
  0x03, 0x00, 0x00, 0x00, 0x05, 0x00, 0x00, 0x00, 0x02, 0x00, 0x00, 0x00,
  0xff, 0xff, 0xff, 0xff, 0x00, 0x00, 0x0e, 0x00, 0x16, 0x00, 0x00, 0x00,
  0x10, 0x00, 0x0c, 0x00, 0x0b, 0x00, 0x04, 0x00, 0x0e, 0x00, 0x00, 0x00,
  0x18, 0x00, 0x00, 0x00, 0x00, 0x00, 0x00, 0x08, 0x18, 0x00, 0x00, 0x00,
  0x1c, 0x00, 0x00, 0x00, 0x00, 0x00, 0x06, 0x00, 0x08, 0x00, 0x07, 0x00,
  0x06, 0x00, 0x00, 0x00, 0x00, 0x00, 0x00, 0x01, 0x01, 0x00, 0x00, 0x00,
  0x05, 0x00, 0x00, 0x00, 0x03, 0x00, 0x00, 0x00, 0x00, 0x00, 0x00, 0x00,
  0x04, 0x00, 0x00, 0x00, 0xff, 0xff, 0xff, 0xff, 0x01, 0x00, 0x00, 0x00,
  0x08, 0x00, 0x00, 0x00, 0x01, 0x00, 0x00, 0x00, 0x00, 0x00, 0x00, 0x00,
  0x09, 0x00, 0x00, 0x00, 0xb4, 0x02, 0x00, 0x00, 0x5c, 0x02, 0x00, 0x00,
  0x1c, 0x02, 0x00, 0x00, 0xe0, 0x01, 0x00, 0x00, 0x94, 0x01, 0x00, 0x00,
  0x2c, 0x01, 0x00, 0x00, 0xc0, 0x00, 0x00, 0x00, 0x50, 0x00, 0x00, 0x00,
  0x04, 0x00, 0x00, 0x00, 0x86, 0xfd, 0xff, 0xff, 0x00, 0x00, 0x00, 0x01,
  0x10, 0x00, 0x00, 0x00, 0x10, 0x00, 0x00, 0x00, 0x09, 0x00, 0x00, 0x00,
  0x28, 0x00, 0x00, 0x00, 0x70, 0xfd, 0xff, 0xff, 0x1b, 0x00, 0x00, 0x00,
  0x53, 0x74, 0x61, 0x74, 0x65, 0x66, 0x75, 0x6c, 0x50, 0x61, 0x72, 0x74,
  0x69, 0x74, 0x69, 0x6f, 0x6e, 0x65, 0x64, 0x43, 0x61, 0x6c, 0x6c, 0x5f,
  0x31, 0x3a, 0x30, 0x00, 0x02, 0x00, 0x00, 0x00, 0x01, 0x00, 0x00, 0x00,
  0x02, 0x00, 0x00, 0x00, 0xce, 0xfd, 0xff, 0xff, 0x00, 0x00, 0x00, 0x01,
  0x10, 0x00, 0x00, 0x00, 0x10, 0x00, 0x00, 0x00, 0x08, 0x00, 0x00, 0x00,
  0x4c, 0x00, 0x00, 0x00, 0xb8, 0xfd, 0xff, 0xff, 0x3c, 0x00, 0x00, 0x00,
  0x73, 0x65, 0x71, 0x75, 0x65, 0x6e, 0x74, 0x69, 0x61, 0x6c, 0x5f, 0x31,
  0x2f, 0x64, 0x65, 0x6e, 0x73, 0x65, 0x5f, 0x32, 0x5f, 0x31, 0x2f, 0x4d,
  0x61, 0x74, 0x4d, 0x75, 0x6c, 0x3b, 0x73, 0x65, 0x71, 0x75, 0x65, 0x6e,
  0x74, 0x69, 0x61, 0x6c, 0x5f, 0x31, 0x2f, 0x64, 0x65, 0x6e, 0x73, 0x65,
  0x5f, 0x32, 0x5f, 0x31, 0x2f, 0x42, 0x69, 0x61, 0x73, 0x41, 0x64, 0x64,
  0x00, 0x00, 0x00, 0x00, 0x02, 0x00, 0x00, 0x00, 0x01, 0x00, 0x00, 0x00,
  0x02, 0x00, 0x00, 0x00, 0x3a, 0xfe, 0xff, 0xff, 0x00, 0x00, 0x00, 0x01,
  0x10, 0x00, 0x00, 0x00, 0x10, 0x00, 0x00, 0x00, 0x07, 0x00, 0x00, 0x00,
  0x48, 0x00, 0x00, 0x00, 0x24, 0xfe, 0xff, 0xff, 0x39, 0x00, 0x00, 0x00,
  0x73, 0x65, 0x71, 0x75, 0x65, 0x6e, 0x74, 0x69, 0x61, 0x6c, 0x5f, 0x31,
  0x2f, 0x64, 0x65, 0x6e, 0x73, 0x65, 0x5f, 0x31, 0x5f, 0x32, 0x2f, 0x4d,
  0x61, 0x74, 0x4d, 0x75, 0x6c, 0x3b, 0x73, 0x65, 0x71, 0x75, 0x65, 0x6e,
  0x74, 0x69, 0x61, 0x6c, 0x5f, 0x31, 0x2f, 0x64, 0x65, 0x6e, 0x73, 0x65,
  0x5f, 0x31, 0x5f, 0x32, 0x2f, 0x52, 0x65, 0x6c, 0x75, 0x00, 0x00, 0x00,
  0x02, 0x00, 0x00, 0x00, 0x01, 0x00, 0x00, 0x00, 0x01, 0x00, 0x00, 0x00,
  0xa2, 0xfe, 0xff, 0xff, 0x00, 0x00, 0x00, 0x01, 0x10, 0x00, 0x00, 0x00,
  0x10, 0x00, 0x00, 0x00, 0x06, 0x00, 0x00, 0x00, 0x44, 0x00, 0x00, 0x00,
  0x8c, 0xfe, 0xff, 0xff, 0x35, 0x00, 0x00, 0x00, 0x73, 0x65, 0x71, 0x75,
  0x65, 0x6e, 0x74, 0x69, 0x61, 0x6c, 0x5f, 0x31, 0x2f, 0x64, 0x65, 0x6e,
  0x73, 0x65, 0x5f, 0x31, 0x2f, 0x4d, 0x61, 0x74, 0x4d, 0x75, 0x6c, 0x3b,
  0x73, 0x65, 0x71, 0x75, 0x65, 0x6e, 0x74, 0x69, 0x61, 0x6c, 0x5f, 0x31,
  0x2f, 0x64, 0x65, 0x6e, 0x73, 0x65, 0x5f, 0x31, 0x2f, 0x52, 0x65, 0x6c,
  0x75, 0x00, 0x00, 0x00, 0x02, 0x00, 0x00, 0x00, 0x01, 0x00, 0x00, 0x00,
  0x04, 0x00, 0x00, 0x00, 0x06, 0xff, 0xff, 0xff, 0x00, 0x00, 0x00, 0x01,
  0x10, 0x00, 0x00, 0x00, 0x10, 0x00, 0x00, 0x00, 0x05, 0x00, 0x00, 0x00,
  0x28, 0x00, 0x00, 0x00, 0xf0, 0xfe, 0xff, 0xff, 0x1b, 0x00, 0x00, 0x00,
  0x73, 0x65, 0x71, 0x75, 0x65, 0x6e, 0x74, 0x69, 0x61, 0x6c, 0x5f, 0x31,
  0x2f, 0x64, 0x65, 0x6e, 0x73, 0x65, 0x5f, 0x31, 0x2f, 0x4d, 0x61, 0x74,
  0x4d, 0x75, 0x6c, 0x00, 0x02, 0x00, 0x00, 0x00, 0x04, 0x00, 0x00, 0x00,
  0x65, 0x01, 0x00, 0x00, 0x4e, 0xff, 0xff, 0xff, 0x00, 0x00, 0x00, 0x01,
  0x10, 0x00, 0x00, 0x00, 0x10, 0x00, 0x00, 0x00, 0x04, 0x00, 0x00, 0x00,
  0x1c, 0x00, 0x00, 0x00, 0x38, 0xff, 0xff, 0xff, 0x0f, 0x00, 0x00, 0x00,
  0x61, 0x72, 0x69, 0x74, 0x68, 0x2e, 0x63, 0x6f, 0x6e, 0x73, 0x74, 0x61,
  0x6e, 0x74, 0x32, 0x00, 0x01, 0x00, 0x00, 0x00, 0x02, 0x00, 0x00, 0x00,
  0x86, 0xff, 0xff, 0xff, 0x00, 0x00, 0x00, 0x01, 0x10, 0x00, 0x00, 0x00,
  0x10, 0x00, 0x00, 0x00, 0x03, 0x00, 0x00, 0x00, 0x1c, 0x00, 0x00, 0x00,
  0x70, 0xff, 0xff, 0xff, 0x0f, 0x00, 0x00, 0x00, 0x61, 0x72, 0x69, 0x74,
  0x68, 0x2e, 0x63, 0x6f, 0x6e, 0x73, 0x74, 0x61, 0x6e, 0x74, 0x31, 0x00,
  0x02, 0x00, 0x00, 0x00, 0x01, 0x00, 0x00, 0x00, 0x04, 0x00, 0x00, 0x00,
  0xc2, 0xff, 0xff, 0xff, 0x00, 0x00, 0x00, 0x01, 0x10, 0x00, 0x00, 0x00,
  0x10, 0x00, 0x00, 0x00, 0x02, 0x00, 0x00, 0x00, 0x1c, 0x00, 0x00, 0x00,
  0xac, 0xff, 0xff, 0xff, 0x0e, 0x00, 0x00, 0x00, 0x61, 0x72, 0x69, 0x74,
  0x68, 0x2e, 0x63, 0x6f, 0x6e, 0x73, 0x74, 0x61, 0x6e, 0x74, 0x00, 0x00,
  0x02, 0x00, 0x00, 0x00, 0x02, 0x00, 0x00, 0x00, 0x01, 0x00, 0x00, 0x00,
  0x00, 0x00, 0x16, 0x00, 0x18, 0x00, 0x14, 0x00, 0x00, 0x00, 0x10, 0x00,
  0x0c, 0x00, 0x08, 0x00, 0x00, 0x00, 0x00, 0x00, 0x00, 0x00, 0x07, 0x00,
  0x16, 0x00, 0x00, 0x00, 0x00, 0x00, 0x00, 0x01, 0x14, 0x00, 0x00, 0x00,
  0x14, 0x00, 0x00, 0x00, 0x01, 0x00, 0x00, 0x00, 0x30, 0x00, 0x00, 0x00,
  0x04, 0x00, 0x04, 0x00, 0x04, 0x00, 0x00, 0x00, 0x1e, 0x00, 0x00, 0x00,
  0x73, 0x65, 0x72, 0x76, 0x69, 0x6e, 0x67, 0x5f, 0x64, 0x65, 0x66, 0x61,
  0x75, 0x6c, 0x74, 0x5f, 0x6b, 0x65, 0x72, 0x61, 0x73, 0x5f, 0x74, 0x65,
  0x6e, 0x73, 0x6f, 0x72, 0x3a, 0x30, 0x00, 0x00, 0x02, 0x00, 0x00, 0x00,
  0x01, 0x00, 0x00, 0x00, 0x65, 0x01, 0x00, 0x00, 0x02, 0x00, 0x00, 0x00,
  0x20, 0x00, 0x00, 0x00, 0x04, 0x00, 0x00, 0x00, 0xf4, 0xff, 0xff, 0xff,
  0x19, 0x00, 0x00, 0x00, 0x00, 0x00, 0x00, 0x19, 0x0c, 0x00, 0x0c, 0x00,
  0x0b, 0x00, 0x00, 0x00, 0x00, 0x00, 0x04, 0x00, 0x0c, 0x00, 0x00, 0x00,
  0x09, 0x00, 0x00, 0x00, 0x00, 0x00, 0x00, 0x09
};
